unsigned char model_tflite[] = {
  0x1c, 0x00, 0x00, 0x00, 0x54, 0x46, 0x4c, 0x33, 0x14, 0x00, 0x20, 0x00,
  0x04, 0x00, 0x08, 0x00, 0x0c, 0x00, 0x10, 0x00, 0x14, 0x00, 0x00, 0x00,
  0x18, 0x00, 0x1c, 0x00, 0x14, 0x00, 0x00, 0x00, 0x03, 0x00, 0x00, 0x00,
  0x18, 0x00, 0x00, 0x00, 0x1c, 0x00, 0x00, 0x00, 0x18, 0x01, 0x00, 0x00,
  0x1c, 0x00, 0x00, 0x00, 0xc0, 0x00, 0x00, 0x00, 0x3c, 0x00, 0x00, 0x00,
  0x01, 0x00, 0x00, 0x00, 0x70, 0x02, 0x00, 0x00, 0x01, 0x00, 0x00, 0x00,
  0x20, 0x01, 0x00, 0x00, 0x09, 0x00, 0x00, 0x00, 0xa4, 0x06, 0x00, 0x00,
  0xa0, 0x06, 0x00, 0x00, 0xc8, 0x05, 0x00, 0x00, 0x54, 0x05, 0x00, 0x00,
  0xec, 0x03, 0x00, 0x00, 0xd4, 0x02, 0x00, 0x00, 0x8c, 0x06, 0x00, 0x00,
  0x88, 0x06, 0x00, 0x00, 0xb8, 0x00, 0x00, 0x00, 0x01, 0x00, 0x00, 0x00,
  0x10, 0x00, 0x00, 0x00, 0x00, 0x00, 0x0a, 0x00, 0x10, 0x00, 0x0c, 0x00,
  0x08, 0x00, 0x04, 0x00, 0x0a, 0x00, 0x00, 0x00, 0x0c, 0x00, 0x00, 0x00,
  0x1c, 0x00, 0x00, 0x00, 0x20, 0x00, 0x00, 0x00, 0x0f, 0x00, 0x00, 0x00,
  0x73, 0x65, 0x72, 0x76, 0x69, 0x6e, 0x67, 0x5f, 0x64, 0x65, 0x66, 0x61,
  0x75, 0x6c, 0x74, 0x00, 0x01, 0x00, 0x00, 0x00, 0x14, 0x00, 0x00, 0x00,
  0x01, 0x00, 0x00, 0x00, 0x24, 0x00, 0x00, 0x00, 0x08, 0x00, 0x0c, 0x00,
  0x08, 0x00, 0x04, 0x00, 0x08, 0x00, 0x00, 0x00, 0x06, 0x00, 0x00, 0x00,
  0x04, 0x00, 0x00, 0x00, 0x07, 0x00, 0x00, 0x00, 0x64, 0x65, 0x6e, 0x73,
  0x65, 0x5f, 0x31, 0x00, 0xc2, 0xfa, 0xff, 0xff, 0x04, 0x00, 0x00, 0x00,
  0x0b, 0x00, 0x00, 0x00, 0x64, 0x65, 0x6e, 0x73, 0x65, 0x5f, 0x69, 0x6e,
  0x70, 0x75, 0x74, 0x00, 0x01, 0x00, 0x00, 0x00, 0x0c, 0x00, 0x00, 0x00,
  0x08, 0x00, 0x0c, 0x00, 0x04, 0x00, 0x08, 0x00, 0x08, 0x00, 0x00, 0x00,
  0x08, 0x00, 0x00, 0x00, 0x08, 0x00, 0x00, 0x00, 0x13, 0x00, 0x00, 0x00,
  0x6d, 0x69, 0x6e, 0x5f, 0x72, 0x75, 0x6e, 0x74, 0x69, 0x6d, 0x65, 0x5f,
  0x76, 0x65, 0x72, 0x73, 0x69, 0x6f, 0x6e, 0x00, 0x0e, 0xfb, 0xff, 0xff,
  0x04, 0x00, 0x00, 0x00, 0x10, 0x00, 0x00, 0x00, 0x31, 0x2e, 0x35, 0x2e,
  0x30, 0x00, 0x00, 0x00, 0x00, 0x00, 0x00, 0x00, 0x00, 0x00, 0x00, 0x00,
  0x0f, 0x00, 0x00, 0x00, 0x4d, 0x4c, 0x49, 0x52, 0x20, 0x43, 0x6f, 0x6e,
  0x76, 0x65, 0x72, 0x74, 0x65, 0x64, 0x2e, 0x00, 0x00, 0x00, 0x0e, 0x00,
  0x18, 0x00, 0x04, 0x00, 0x08, 0x00, 0x0c, 0x00, 0x10, 0x00, 0x14, 0x00,
  0x0e, 0x00, 0x00, 0x00, 0x14, 0x00, 0x00, 0x00, 0x30, 0x00, 0x00, 0x00,
  0x34, 0x00, 0x00, 0x00, 0x38, 0x00, 0x00, 0x00, 0x40, 0x00, 0x00, 0x00,
  0x07, 0x00, 0x00, 0x00, 0x14, 0x05, 0x00, 0x00, 0xc8, 0x04, 0x00, 0x00,
  0x58, 0x04, 0x00, 0x00, 0xe0, 0x03, 0x00, 0x00, 0x78, 0x02, 0x00, 0x00,
  0x28, 0x01, 0x00, 0x00, 0x68, 0x00, 0x00, 0x00, 0x01, 0x00, 0x00, 0x00,
  0x00, 0x00, 0x00, 0x00, 0x01, 0x00, 0x00, 0x00, 0x06, 0x00, 0x00, 0x00,
  0x02, 0x00, 0x00, 0x00, 0xb4, 0x00, 0x00, 0x00, 0x1c, 0x00, 0x00, 0x00,
  0x04, 0x00, 0x00, 0x00, 0x6d, 0x61, 0x69, 0x6e, 0x00, 0x00, 0x0e, 0x00,
  0x14, 0x00, 0x00, 0x00, 0x08, 0x00, 0x0c, 0x00, 0x07, 0x00, 0x10, 0x00,
  0x0e, 0x00, 0x00, 0x00, 0x00, 0x00, 0x00, 0x08, 0x18, 0x00, 0x00, 0x00,
  0x0c, 0x00, 0x00, 0x00, 0x04, 0x00, 0x00, 0x00, 0xf8, 0xfa, 0xff, 0xff,
  0x01, 0x00, 0x00, 0x00, 0x06, 0x00, 0x00, 0x00, 0x03, 0x00, 0x00, 0x00,
  0x05, 0x00, 0x00, 0x00, 0x04, 0x00, 0x00, 0x00, 0x01, 0x00, 0x00, 0x00,
  0x80, 0xfb, 0xff, 0xff, 0x14, 0x00, 0x00, 0x00, 0x07, 0x00, 0x00, 0x00,
  0x24, 0x00, 0x00, 0x00, 0x40, 0x00, 0x00, 0x00, 0x10, 0x00, 0x00, 0x00,
  0x02, 0x00, 0x00, 0x00, 0x01, 0x00, 0x00, 0x00, 0x05, 0x00, 0x00, 0x00,
  0x02, 0x00, 0x00, 0x00, 0xff, 0xff, 0xff, 0xff, 0x05, 0x00, 0x00, 0x00,
  0x19, 0x00, 0x00, 0x00, 0x53, 0x74, 0x61, 0x74, 0x65, 0x66, 0x75, 0x6c,
  0x50, 0x61, 0x72, 0x74, 0x69, 0x74, 0x69, 0x6f, 0x6e, 0x65, 0x64, 0x43,
  0x61, 0x6c, 0x6c, 0x3a, 0x30, 0x00, 0x00, 0x00, 0x44, 0xfc, 0xff, 0xff,
  0x00, 0x00, 0x0e, 0x00, 0x16, 0x00, 0x00, 0x00, 0x08, 0x00, 0x0c, 0x00,
  0x07, 0x00, 0x10, 0x00, 0x0e, 0x00, 0x00, 0x00, 0x00, 0x00, 0x00, 0x08,
  0x24, 0x00, 0x00, 0x00, 0x18, 0x00, 0x00, 0x00, 0x0c, 0x00, 0x00, 0x00,
  0x00, 0x00, 0x06, 0x00, 0x08, 0x00, 0x07, 0x00, 0x06, 0x00, 0x00, 0x00,
  0x00, 0x00, 0x00, 0x01, 0x01, 0x00, 0x00, 0x00, 0x05, 0x00, 0x00, 0x00,
  0x03, 0x00, 0x00, 0x00, 0x00, 0x00, 0x00, 0x00, 0x03, 0x00, 0x00, 0x00,
  0x02, 0x00, 0x00, 0x00, 0x0c, 0x00, 0x10, 0x00, 0x0b, 0x00, 0x00, 0x00,
  0x0c, 0x00, 0x04, 0x00, 0x0c, 0x00, 0x00, 0x00, 0x09, 0x00, 0x00, 0x00,
  0x00, 0x00, 0x00, 0x09, 0x01, 0x00, 0x00, 0x00, 0x3c, 0xfc, 0xff, 0xff,
  0x14, 0x00, 0x00, 0x00, 0x06, 0x00, 0x00, 0x00, 0x24, 0x00, 0x00, 0x00,
  0x64, 0x00, 0x00, 0x00, 0x10, 0x00, 0x00, 0x00, 0x02, 0x00, 0x00, 0x00,
  0x01, 0x00, 0x00, 0x00, 0x0a, 0x00, 0x00, 0x00, 0x02, 0x00, 0x00, 0x00,
  0xff, 0xff, 0xff, 0xff, 0x0a, 0x00, 0x00, 0x00, 0x3d, 0x00, 0x00, 0x00,
  0x6d, 0x6f, 0x64, 0x65, 0x6c, 0x5f, 0x30, 0x2f, 0x64, 0x65, 0x6e, 0x73,
  0x65, 0x2f, 0x4d, 0x61, 0x74, 0x4d, 0x75, 0x6c, 0x3b, 0x6d, 0x6f, 0x64,
  0x65, 0x6c, 0x5f, 0x30, 0x2f, 0x64, 0x65, 0x6e, 0x73, 0x65, 0x2f, 0x52,
  0x65, 0x6c, 0x75, 0x3b, 0x6d, 0x6f, 0x64, 0x65, 0x6c, 0x5f, 0x30, 0x2f,
  0x64, 0x65, 0x6e, 0x73, 0x65, 0x2f, 0x42, 0x69, 0x61, 0x73, 0x41, 0x64,
  0x64, 0x00, 0x00, 0x00, 0x44, 0xfc, 0xff, 0xff, 0x1e, 0xfd, 0xff, 0xff,
  0x04, 0x00, 0x00, 0x00, 0xc8, 0x00, 0x00, 0x00, 0x2b, 0xef, 0xaf, 0x3e,
  0xa6, 0x87, 0xe5, 0xbe, 0x98, 0x66, 0x6f, 0x3d, 0x8f, 0xca, 0x8d, 0x3e,
  0x89, 0xd2, 0x52, 0xbe, 0x9d, 0x52, 0xec, 0x3e, 0x34, 0xc6, 0xda, 0x3e,
  0xd5, 0xc3, 0xea, 0xbd, 0xc0, 0xc5, 0x1c, 0x3d, 0xd8, 0xbe, 0xad, 0x3d,
  0x36, 0x1d, 0x40, 0xbe, 0x87, 0xf7, 0x89, 0x3d, 0xf3, 0x42, 0xab, 0x3e,
  0x2e, 0xad, 0x2e, 0x3f, 0xce, 0xc6, 0x1d, 0x3f, 0x18, 0x69, 0x88, 0xbe,
  0x36, 0xc7, 0xf6, 0xbe, 0x0c, 0xe3, 0xb7, 0x3e, 0x13, 0xbe, 0x19, 0x3f,
  0x86, 0xf9, 0x87, 0x3e, 0x80, 0xe0, 0x23, 0x3e, 0x73, 0x22, 0x64, 0xbd,
  0xda, 0xe1, 0x2c, 0x3e, 0xa4, 0x6c, 0xce, 0x3e, 0x9b, 0x9c, 0x10, 0x3f,
  0x79, 0xff, 0x7b, 0x3e, 0x6c, 0x66, 0xcf, 0xbe, 0x08, 0x20, 0x6d, 0xbe,
  0xa5, 0x10, 0x00, 0x3f, 0x0e, 0xdb, 0xec, 0xbe, 0x45, 0x84, 0x02, 0x3f,
  0x3c, 0x55, 0xbe, 0xbe, 0x07, 0x51, 0xfe, 0x3e, 0xcd, 0x30, 0x8a, 0xbe,
  0xa6, 0x9c, 0xed, 0x3e, 0x38, 0x38, 0xb4, 0x3d, 0x5f, 0x57, 0x0d, 0x3f,
  0x81, 0xdb, 0xfa, 0xbe, 0xdc, 0xa4, 0x8e, 0x3e, 0xbc, 0x89, 0xaa, 0x3e,
  0x13, 0x64, 0x82, 0x3e, 0x81, 0x1e, 0x19, 0xbf, 0xe1, 0x0f, 0x37, 0x3f,
  0xb6, 0x70, 0x12, 0xbe, 0x2b, 0xe6, 0xcf, 0xbe, 0x78, 0xbe, 0xca, 0xbe,
  0x74, 0x41, 0xb0, 0x3e, 0xe2, 0x31, 0x88, 0xbe, 0xbd, 0x3d, 0x1e, 0x3f,
  0x68, 0xf1, 0x2b, 0xbe, 0xca, 0xfd, 0xff, 0xff, 0x10, 0x00, 0x00, 0x00,
  0x05, 0x00, 0x00, 0x00, 0x14, 0x00, 0x00, 0x00, 0x2c, 0x00, 0x00, 0x00,
  0x02, 0x00, 0x00, 0x00, 0x05, 0x00, 0x00, 0x00, 0x0a, 0x00, 0x00, 0x00,
  0x16, 0x00, 0x00, 0x00, 0x6d, 0x6f, 0x64, 0x65, 0x6c, 0x5f, 0x30, 0x2f,
  0x64, 0x65, 0x6e, 0x73, 0x65, 0x5f, 0x31, 0x2f, 0x4d, 0x61, 0x74, 0x4d,
  0x75, 0x6c, 0x00, 0x00, 0x58, 0xfd, 0xff, 0xff, 0x32, 0xfe, 0xff, 0xff,
  0x04, 0x00, 0x00, 0x00, 0x18, 0x01, 0x00, 0x00, 0x5f, 0x58, 0x17, 0x3e,
  0xee, 0x80, 0x13, 0x3f, 0x96, 0x30, 0x02, 0x3f, 0x4c, 0x14, 0xb6, 0xbe,
  0xa5, 0xf6, 0x75, 0x3e, 0x26, 0x3a, 0xfd, 0xbd, 0xc8, 0xf8, 0x13, 0x3f,
  0x36, 0xbd, 0x75, 0x3e, 0xc1, 0xfd, 0xd8, 0xbe, 0xf4, 0x17, 0xcf, 0x3e,
  0x56, 0x66, 0xb0, 0x3c, 0x82, 0x9e, 0x11, 0xbf, 0x0b, 0x05, 0xe2, 0xbe,
  0xc0, 0x39, 0x0c, 0x3f, 0xbb, 0x9a, 0x34, 0xbe, 0x8a, 0x95, 0xac, 0x3d,
  0x29, 0x84, 0x4a, 0x3a, 0x94, 0x0e, 0x80, 0x3e, 0xa4, 0xcc, 0x82, 0xbe,
  0x6b, 0x76, 0x0f, 0x3f, 0x97, 0x62, 0x2b, 0x3f, 0x8f, 0xe2, 0x68, 0xbe,
  0x06, 0xad, 0xac, 0xbe, 0x45, 0x7a, 0x34, 0x3f, 0x63, 0xd2, 0xce, 0xbe,
  0xd5, 0xe1, 0x1f, 0x3f, 0x45, 0x19, 0x8a, 0x3e, 0x59, 0x0e, 0x3a, 0x3f,
  0x9a, 0x93, 0xa3, 0xbe, 0x64, 0x22, 0x0f, 0x3d, 0x96, 0xae, 0x37, 0x3e,
  0xbb, 0x4c, 0xc8, 0xbe, 0xca, 0xc7, 0x17, 0xbe, 0xb8, 0xf6, 0x92, 0x3e,
  0x1d, 0x87, 0x75, 0x3e, 0xa1, 0xa5, 0x45, 0x3e, 0x05, 0x09, 0x50, 0xbe,
  0xd1, 0xa2, 0xad, 0xbe, 0x73, 0xd6, 0xea, 0xbe, 0x9e, 0x02, 0x39, 0x3e,
  0x72, 0x89, 0x87, 0x3e, 0x9b, 0x5a, 0xce, 0x3e, 0xfa, 0x37, 0x6f, 0xbe,
  0x38, 0xac, 0xad, 0x3e, 0x36, 0x68, 0xef, 0x3e, 0xb2, 0x3d, 0x45, 0xbe,
  0xe3, 0xb1, 0x0d, 0xbf, 0x39, 0xba, 0xd1, 0x3e, 0x1e, 0x3e, 0xf2, 0xbe,
  0x93, 0x25, 0x5f, 0xbe, 0xfa, 0x37, 0xdf, 0x3e, 0x45, 0xee, 0x44, 0x3e,
  0xd1, 0x2b, 0x1e, 0xbf, 0x82, 0x20, 0x0e, 0xbf, 0xc4, 0xa9, 0xda, 0x3d,
  0x7d, 0x99, 0xf6, 0x3e, 0x00, 0xb2, 0xd9, 0xbe, 0xc0, 0xf6, 0x0c, 0x3d,
  0x3e, 0x6c, 0x37, 0xbe, 0x0c, 0x6d, 0x02, 0x3f, 0xf0, 0x6b, 0xa9, 0xbe,
  0xab, 0xc5, 0xcc, 0xbe, 0xac, 0xaa, 0x9d, 0x3e, 0x8c, 0xf9, 0x90, 0x3e,
  0x70, 0xa0, 0x65, 0xbd, 0xfd, 0x2f, 0x0a, 0xbf, 0xb1, 0x3f, 0xa0, 0xbe,
  0x40, 0x39, 0x3b, 0x3e, 0x80, 0x33, 0xa6, 0xbd, 0x80, 0x17, 0x20, 0xbd,
  0x2e, 0xff, 0xff, 0xff, 0x10, 0x00, 0x00, 0x00, 0x04, 0x00, 0x00, 0x00,
  0x14, 0x00, 0x00, 0x00, 0x2c, 0x00, 0x00, 0x00, 0x02, 0x00, 0x00, 0x00,
  0x0a, 0x00, 0x00, 0x00, 0x07, 0x00, 0x00, 0x00, 0x14, 0x00, 0x00, 0x00,
  0x6d, 0x6f, 0x64, 0x65, 0x6c, 0x5f, 0x30, 0x2f, 0x64, 0x65, 0x6e, 0x73,
  0x65, 0x2f, 0x4d, 0x61, 0x74, 0x4d, 0x75, 0x6c, 0x00, 0x00, 0x00, 0x00,
  0xbc, 0xfe, 0xff, 0xff, 0x96, 0xff, 0xff, 0xff, 0x04, 0x00, 0x00, 0x00,
  0x28, 0x00, 0x00, 0x00, 0x32, 0x37, 0xf6, 0xbd, 0x2f, 0x6d, 0xb1, 0xbc,
  0xc9, 0x80, 0xac, 0xbc, 0xfc, 0x55, 0xa2, 0xbd, 0x5f, 0x5e, 0x56, 0xbe,
  0xc0, 0x69, 0x21, 0xbe, 0xe7, 0xee, 0x83, 0xbc, 0xd1, 0x85, 0xf0, 0xbd,
  0x00, 0x00, 0x00, 0x00, 0x00, 0x00, 0x00, 0x00, 0xa2, 0xff, 0xff, 0xff,
  0x10, 0x00, 0x00, 0x00, 0x03, 0x00, 0x00, 0x00, 0x10, 0x00, 0x00, 0x00,
  0x20, 0x00, 0x00, 0x00, 0x01, 0x00, 0x00, 0x00, 0x0a, 0x00, 0x00, 0x00,
  0x0a, 0x00, 0x00, 0x00, 0x64, 0x65, 0x6e, 0x73, 0x65, 0x2f, 0x62, 0x69,
  0x61, 0x73, 0x00, 0x00, 0x04, 0x00, 0x06, 0x00, 0x04, 0x00, 0x00, 0x00,
  0x00, 0x00, 0x06, 0x00, 0x08, 0x00, 0x04, 0x00, 0x06, 0x00, 0x00, 0x00,
  0x04, 0x00, 0x00, 0x00, 0x14, 0x00, 0x00, 0x00, 0xb9, 0x0e, 0x51, 0x3d,
  0x91, 0x52, 0x85, 0x3d, 0x9c, 0x6e, 0x10, 0x3d, 0x60, 0x78, 0x00, 0x3d,
  0x6a, 0x98, 0xcc, 0x3c, 0x00, 0x00, 0x0e, 0x00, 0x14, 0x00, 0x04, 0x00,
  0x00, 0x00, 0x08, 0x00, 0x0c, 0x00, 0x10, 0x00, 0x0e, 0x00, 0x00, 0x00,
  0x10, 0x00, 0x00, 0x00, 0x02, 0x00, 0x00, 0x00, 0x10, 0x00, 0x00, 0x00,
  0x20, 0x00, 0x00, 0x00, 0x01, 0x00, 0x00, 0x00, 0x05, 0x00, 0x00, 0x00,
  0x0c, 0x00, 0x00, 0x00, 0x64, 0x65, 0x6e, 0x73, 0x65, 0x5f, 0x31, 0x2f,
  0x62, 0x69, 0x61, 0x73, 0x00, 0x00, 0x00, 0x00, 0x90, 0xff, 0xff, 0xff,
  0x14, 0x00, 0x18, 0x00, 0x04, 0x00, 0x00, 0x00, 0x08, 0x00, 0x0c, 0x00,
  0x10, 0x00, 0x00, 0x00, 0x00, 0x00, 0x14, 0x00, 0x14, 0x00, 0x00, 0x00,
  0x14, 0x00, 0x00, 0x00, 0x01, 0x00, 0x00, 0x00, 0x24, 0x00, 0x00, 0x00,
  0x44, 0x00, 0x00, 0x00, 0x10, 0x00, 0x00, 0x00, 0x02, 0x00, 0x00, 0x00,
  0x01, 0x00, 0x00, 0x00, 0x07, 0x00, 0x00, 0x00, 0x02, 0x00, 0x00, 0x00,
  0xff, 0xff, 0xff, 0xff, 0x07, 0x00, 0x00, 0x00, 0x1d, 0x00, 0x00, 0x00,
  0x73, 0x65, 0x72, 0x76, 0x69, 0x6e, 0x67, 0x5f, 0x64, 0x65, 0x66, 0x61,
  0x75, 0x6c, 0x74, 0x5f, 0x64, 0x65, 0x6e, 0x73, 0x65, 0x5f, 0x69, 0x6e,
  0x70, 0x75, 0x74, 0x3a, 0x30, 0x00, 0x00, 0x00, 0xfc, 0xff, 0xff, 0xff,
  0x04, 0x00, 0x04, 0x00, 0x04, 0x00, 0x00, 0x00
};
unsigned int model_tflite_len = 1784;
